0000000000000000000000000000
0000000000000000F091E1000000
00800000003300000000EFC00000
01B002C580170000000720002900
0000000000000000000003800000
000000000000000000B0EEC00000
00000000003E00FCD80000403800
000007C0000000C400E000000000
0000000000000000000140001400
0000000000000000000000000000
0000074000170004400000000000
000806C000070000000163400000
000000000018000000000E403200
0038000FC00000000007C0000000
0060000000000000F80000000000
0000000000000000000000000000
0160000280000000000002403900
0000000000030001E80000002A00
0000000000000000000000000000
0000026000090000280000000000
0000000EC00000000005C0000000
00000140000C0000A11640000000
0000000000120000000740002C00
0038000D003D0058000140000000
01C0000000140000000000000000
0000002000080000000005800300
00000006000000B8000080000000
01D007A000000020000760000000
00C0000000000038000000000D00
0000010C80010038000000000200
00000000003E00000002CE401000
00000000003F000000000B400000
0003E1AF800F003460C000190000
142120050009000003A560000000
700362E00000004C0101E0000000
01E0076000000000000000000000
1C000000000000C40050001D0000
34B80007000C360003700C1B0300
00000001000000B403752B800000
002130010000000800000B418000
00000002C0000024000000000000
0000000000000000000000000000
0000500C40005600000001C03E00
0000000C800000140000C0403600
01C8200BC0000001B00220000000
09E33200400000EDB80005078000
35F00004400000F4280000000A00
000001C000000000000000078000
0000D5E000000009B80000000000
0180372000000000380000098000
0000000000000000000000000000
15B00000000000D18805E7478100
01E34000002B000000D000000000
3001100000000000000000018000
01D00000002C0000008000090600
0068A00F400C000000F000190000
00000000003B5E00400000003B00
0000000000000000900004080000
00206000C01E00002AC000000000
3828000000002A88007000000500
00033000003F0001F8B000000000
05F8000000006E0098C0049E8400
70000180001220000001EEC00000
0000000000000001900000198000

