000000000
000000000
3E0002040
00A470000
000000000
4000F8000
000001900
40C00004C
007100000
007C00000
009800038
000030040
008C00000
00000194C
000030040
007C00000
000000000
008000000
420000000
000102E00
000000000
000000000
00000003E
008000000
4000E0000
000002000
000000000
000101334
000002000
3C01F0000
000000000
00AC00000

