01E8700000000000480000000000000000000000000000000002007E
F400700340040000080002C00000F400000000007801E3F000000200
00008003000000D8000000003F000000000000000001B00000000000
006340000000000000A000003B000000000D00000000000002800000
0030000000000001C8000F00000000000000000000DC000000000000
000007A00000000000000DC0001201C00002800000F418000000000E
00000000000000000000E0000B0000009060000000E403A000000008
0188000000000000000000000F00240001400680000002F00F800000
00000000000000000000000000000000000000000000000000000000
0030018F800000FC0000000000000010000000000000000000000006
01C03000000000000000000031000030058B4000760001A003960000
00000000003900280010030000000000800000000000000000400400
000380000000000000000000000C0000000002800000000000040000
000000000007000000016300007E0050F70F40007C00000000018070
0003A0014000680003600EC0007E280090001B800000000000000008
000006C340000000580000003C00004006A01D806E00000003DB0F00
003000000DB90000008000000000000000001F0000480137C0000E00
0000000005800400004740000100000001A100000E2473F120000010
0030002000000000000000000000003350000000000000000E400000
446801A00000000003E000000000000000E01B80000000066E800010
01B07000000000E8480080003A1001C000001E00000000C000000000
000066ED0000000000C000000000000001E000000000000000000000
000000000000060000000E000006000020E00000000000000005380C
00002000000000000000000035780000000F80000000009002000000
000000C0000A0E3C00018EC00A00000000000300100000000003BD0C
00005001800000240000000004000000000000000E0000000003000C
0000016E800000180000000000080000000142800000000000000000
000000000005000000000040001CF40000000000000003D0C01A8300
EC00000000010000000000000000000000000000000000000F000000
00000000403160000000008000000000072000000000001000000800
000000C183B50000037000000000000000000000000000E7C0000004
11D800001C0010F00050E2400000000000000000000003100FC00000
01B860001B800000280003003D000048000000000001ABE000000000
000050601C000A00000000000E000000000146000000000000000000
0000074002000000000000000002000370000000002000000F020004
000356C00502002998066000000001F0000000000000000000000000
000000000000000003C0000011000000024100000000000000000000
00000000068000000017600000003C000000008002280000001E0700
F9E0000000000000000183C003000030000000000001D81002C18062
EC0000000000000000000000000000000000C0000000000760000000
01E80000030078D80000E00000000000208000000000180022C18000
00000000003200000000000000740000000000001000017000058000
00880001C0000000007000002D000000066EC0000029B807E1C00000
0000000000090001E0006EC0001E000000000480000003C000000000
000380000000000000000FC000020000000000000A00000000000200
0040400DC0000E00035000000000000001200000100000000D840012
01C006E006800A000000000003000170000000000000000081000800
01F0000C8004021D80000000000401A35000000000189000E0000076
00000000000C000000000C4000000000006000000E00000000010000
000000018000000000000000050000000001400000F5D8000E400000
F80000C0000000F408000000007A000000001F007200000001DF006E
001000E0000000E4000000000000240000001E800001B00000003E00
014800000000000000000000000E000001E0078002000000021A8F08
00000044DE006AF450F780003800000005E01C00000000E00000156A
01E00000000000000007A0000078000006CE1E8000000060A0000000
0000F0000000001C0007E0000000F4000000000012000350001F0000
0000000C40000601F8A0008006000000000000000000800000000072
003800000000000003F0000000000003A00140000000000000000000
00000000000000000000000000000000016000000000000000000000
00000000000300000000020000700000000D800006000007C0000000
00000780002E0001C00001400300000380C000007E28000003400000
0020000000000001F807200000000000000040000400000760000000
0C0007C0400000000000000027760000000000000000006001401902
00000000000000F0000780000078000000C000000000780000000000

