F800000FC0000001A8000F400000
0040004000000000000000000000
A003400000000000A0000000030C
000005CCC4B52209A1F00000001C
0190000000000000000600000000
0000000000001200000000000000
0003400000000000000020000000
0068068003007000000000000000
EC00C100000000DC48002000006E
0000B00018006800000000000000
0000000000000000200000000000
01A80000000000D4000003C00E00
0000000000000000000000003700
0003800E01000000000000403500
015A21A000300000018200000000
2C0006000800000180B002C03E00
0000000000000000000000000000
0000000000000000000020010000
D0011000000000000326A0003700
3001C00B5D8000000004C0000000
000800000000000003A6C3C0002E
0000C0001D007C00033000058000
00000000000700F400000D000000
019806C000007401A80000000900
2000070000000000000000000000
000000000000000000000004B768
00000000000D6E00000000000000
1C000002C0000000000002800000
0003C00000000000000000000000
0000000D80371600588000000000
0001F0000F805C74027000000000
01B8000D400900000000001AB100
01D0000000006A00000000000000
01F8000000007400032000000000
0000000000000000000000420734
09F8700AC017000178000F0D0000
0000000000000000036000000028
140001A000000000034000000000
0000000E4000160000000F400000
000000001B800000000000000000
000000000000000003A000003E00
00580000000000000006E0000000
0003500000000000000000003872
000000001800001C03C00E803870
004B8660000000E0000000000000
000006E0050000019006E0000000
7C00000C448000700000058FA800
F0400000003700EC000000000000
0198D000003B0000600660000000
000001A005860000000000000000
B400000B00000000000002C00000
0000E009C0006601A00527068000
0000000000000001F80000000000
DDD8000000000C0003F00000006E
01980000193B0000000000003A00
0000000000006800000000000000
0048000E80000CF1DBD000000000
01980000003D00000000A3000070
0000000006BA0000700000000014
0188000E80006C0000000D803600
000060000000120003762E000000
0000000001B900C8000000050018
0000000B8009289001B007592014
206346C11A800030000001800020

